000100010001000100010001000100010001
000100020002000200020002000200020001
000100020004000400040004000400020001
000100020004000800080008000400020001
000100020004000800100008000400020001
000100020004000800080008000400020001
000100020004000400040004000400020001
000100020002000200020002000200020001
000100010001000100010001000100010001
000000000000000000000000000000000000
000000000000000000000000000000000000
000000000000000000000000000000000000
000000000000000000000000000000000000
000000000000000000000000000000000000
000000000000000000000000000000000000
000000000000000000000000000000000000
000000000000000000000000000000000000
000000000000000000000000000000000000
000100010001000100010001000100010001
000100020002000200020002000200020001
000100020004000400040004000400020001
000100020004000800080008000400020001
000100020004000800100008000400020001
000100020004000800080008000400020001
000100020004000400040004000400020001
000100020002000200020002000200020001
000100010001000100010001000100010001
000000000000000000000000000000000000
000000000000000000000000000000000000
000000000000000000000000000000000000
000000000000000000000000000000000000
000000000000000000000000000000000000
000000000000000000000000000000000000
000000000000000000000000000000000000
000000000000000000000000000000000000
000000000000000000000000000000000000




