000100020001000000000000000000000000
000000000000000000000000000000000000
fffffffeffff000000000000000000000000
00010000ffff000000000000000000000000
00020000fffe000000000000000000000000
00010000ffff000000000000000000000000
0000ffff0000000000000000000000000000
ffff0005ffff000000000000000000000000
0000ffff0000000000000000000000000000
000100020001000000000000000000000000
000000000000000000000000000000000000
fffffffeffff000000000000000000000000
00010000ffff000000000000000000000000
00020000fffe000000000000000000000000
00010000ffff000000000000000000000000
0000ffff0000000000000000000000000000
ffff0005ffff000000000000000000000000
0000ffff0000000000000000000000000000
000100020001000000000000000000000000
000000000000000000000000000000000000
fffffffeffff000000000000000000000000
00010000ffff000000000000000000000000
00020000fffe000000000000000000000000
00010000ffff000000000000000000000000
0000ffff0000000000000000000000000000
ffff0005ffff000000000000000000000000
0000ffff0000000000000000000000000000
000100020001000000000000000000000000
000000000000000000000000000000000000
fffffffeffff000000000000000000000000
00010000ffff000000000000000000000000
00020000fffe000000000000000000000000
00010000ffff000000000000000000000000
0000ffff0000000000000000000000000000
ffff0005ffff000000000000000000000000
0000ffff0000000000000000000000000000
000100020001000000000000000000000000
000000000000000000000000000000000000
fffffffeffff000000000000000000000000
00010000ffff000000000000000000000000
00020000fffe000000000000000000000000
00010000ffff000000000000000000000000
0000ffff0000000000000000000000000000
ffff0005ffff000000000000000000000000
0000ffff0000000000000000000000000000

